MEMORY_INITIALIZATION_RADIX=2;
MEMORY_INITIALIZATION_VECTOR = 
0000000001110011,
0000000000100101,
0000000001000000,
0000000001010010,
1111111111100000,
0000000001000110,
0000000000000000,
0000000001010000,
1111111101110101,
1111111110010110,
1111111111001111,
0000000000011100,
0000000001000100,
0000000000011010,
1111111111111001,
1111111110010111,
1111111110010011,
0000000100011101,
0000000000011001,
1111111111111010,
0000000001001100,
0000000100001110,
0000000001000101,
1111111110100000,
0000000001001101,
0000000000011000,
1111111111101101,
0000000001001010,
0000000010000110,
0000000010011001,
0000000000010111,
0000000000100101,
1111111111110100,
1111111111101000,
0000000010011111,
0000000000110111,
0000000000001001,
0000000000101001,
0000000000011000,
0000000010011101,
1111111001101000,
1111111101011000,
0000000010010111,
0000000000000001,
0000000000011001,
1111111110001111,
0000000001000110,
0000000000101110,
0000000000110100,
0000000100010011,
0000000010000101,
1111111111111000,
0000000010010001,
1111111111110110,
0000000000000000,
0000000000000010,
0000000001000000,
0000000001001100,
1111111110100001,
0000000010010101,
1111111111100010,
0000000010100000,
0000000000001000,
1111111111101010,
0000000010000011,
0000000001110011,
0000000010001011,
0000000011010100,
0000000010101100,
0000000000111101,
0000000011111100,
0000000011110111,
0000000010110001,
1111111110001000,
0000000000100001,
0000000100101101,
1111111101101000,
0000000110110010,
0000000100000101,
0000000010011100,
0000000000010100,
0000000100100011,
1111111101111111,
1111111110010101,
0000000011101001,
0000000010101111,
0000000011010101,
0000000100011011,
1111111111010110,
0000000101010010,
0000000010000000,
0000000000000111,
0000000001011011,
1111111100101010,
1111111110011101,
0000000001110000,
0000000000000100,
1111111011110110,
0000000000011001,
1111111111110100,
0000000001000000,
0000000000110111,
1111111110001101,
1111111101100110,
0000000011001010,
0000000010001111;